solver_type L2R_LR_DUAL
nr_class 3
label 2 3 1
nr_feature 1000
bias 1
w
7.007618e-03 7.070616e-03 -1.637924e-02 
1.789145e-02 -7.804559e-03 -7.607957e-03 
3.290686e-03 3.859169e-03 -8.381392e-03 
-6.831064e-03 3.863471e-03 1.222923e-03 
-6.541434e-03 -9.900452e-04 7.489783e-03 
-6.158032e-03 -8.085059e-04 7.448508e-03 
3.922476e-04 1.726428e-03 -2.687232e-03 
-3.697320e-03 4.776758e-03 -2.606140e-03 
5.744222e-03 -8.705663e-03 5.293279e-03 
8.876741e-03 -3.129541e-03 -4.913425e-03 
4.787251e-04 5.722897e-03 -7.933917e-03 
-9.309848e-04 -2.052333e-04 1.329302e-03 
4.598024e-04 1.097626e-03 -1.898315e-03 
4.115299e-03 5.669337e-03 -1.092853e-02 
-9.878173e-03 1.137459e-02 -4.882772e-03 
4.044117e-03 -5.701777e-03 3.051334e-03 
-9.544688e-04 -1.208299e-03 2.675102e-03 
-1.882569e-03 4.778757e-03 -4.403930e-03 
-3.235319e-03 -1.947692e-04 3.580417e-03 
1.901873e-03 -3.238154e-03 2.179018e-03 
-1.207576e-02 6.972844e-03 3.417396e-03 
-1.688911e-03 -9.604161e-06 1.799218e-03 
9.337079e-03 9.028727e-04 -1.038570e-02 
2.576915e-03 1.014854e-03 -3.714733e-03 
-8.723856e-03 4.361281e-03 3.023597e-03 
1.042041e-02 -4.089966e-03 -5.015447e-03 
-3.035386e-03 -6.584363e-03 1.179574e-02 
7.276875e-03 -2.586043e-03 -3.718376e-03 
4.249669e-03 -1.909979e-03 -1.329611e-03 
-1.056285e-03 -1.099419e-02 1.484233e-02 
-4.446574e-04 3.110368e-03 -3.639086e-03 
5.915490e-03 -5.950185e-03 1.682554e-03 
-1.229650e-02 5.986424e-03 3.927759e-03 
2.453050e-03 -3.578022e-03 1.692796e-03 
-2.037739e-02 1.667281e-03 1.790942e-02 
-1.512940e-02 1.643682e-02 -6.013501e-03 
-1.104319e-02 -2.015158e-03 1.393011e-02 
-3.483304e-03 1.145463e-03 2.155520e-03 
2.518843e-03 7.238007e-03 -1.229144e-02 
-1.113102e-02 9.539189e-03 -1.262145e-03 
-6.066074e-03 1.120583e-02 -8.534693e-03 
-7.443780e-04 -2.043658e-03 3.163320e-03 
3.894908e-03 -6.200833e-03 3.679117e-03 
1.004045e-02 -7.143414e-03 -8.657743e-04 
5.440310e-03 -9.397971e-03 6.030748e-03 
9.268125e-04 -1.266268e-03 5.572389e-04 
3.697645e-03 3.549899e-03 -7.902525e-03 
-5.477812e-03 1.366075e-02 -1.205453e-02 
-1.219602e-02 1.372694e-02 -5.506079e-03 
-2.734869e-03 3.754340e-03 -2.506501e-03 
-1.195799e-02 7.542246e-03 1.990710e-03 
-1.118016e-02 5.284973e-03 4.829324e-03 
1.409116e-02 -1.658402e-03 -1.154022e-02 
1.287487e-02 9.701830e-03 -2.508202e-02 
-7.244044e-03 -2.449512e-03 1.006731e-02 
-2.075647e-03 2.690797e-03 -1.526898e-03 
-5.503764e-03 6.347217e-03 -2.082096e-03 
7.673762e-03 4.666854e-03 -1.314225e-02 
-6.026228e-03 7.775863e-03 -4.183880e-03 
-1.763228e-03 2.502450e-04 1.208010e-03 
-2.961076e-04 1.516598e-03 -1.522260e-03 
-9.969798e-03 1.015185e-02 -2.873222e-03 
4.340971e-04 6.115950e-03 -8.083785e-03 
-5.241406e-04 3.981617e-03 -4.358124e-03 
-5.567485e-04 7.627107e-03 -9.374881e-03 
3.123774e-03 -4.711656e-03 2.681202e-03 
-5.601410e-04 -3.987029e-03 5.629847e-03 
1.007783e-02 -9.691050e-03 2.307492e-03 
-1.326307e-02 -1.288889e-04 1.353069e-02 
-1.749562e-02 7.963426e-03 7.293679e-03 
9.336300e-03 -6.245904e-03 -1.080778e-03 
3.143731e-03 6.028119e-03 -1.089613e-02 
-4.077431e-04 1.451702e-03 -1.198497e-03 
-8.523760e-03 7.611260e-03 -1.739210e-03 
-1.492861e-02 2.687322e-03 1.051592e-02 
-1.202176e-03 6.556551e-03 -7.263278e-03 
-2.809515e-03 4.805278e-03 -3.263176e-03 
5.554719e-03 -9.695452e-03 7.027406e-03 
2.383493e-04 3.682912e-03 -4.713804e-03 
-6.661338e-03 4.098236e-03 9.821295e-04 
3.857661e-03 -1.431586e-02 1.468235e-02 
-4.701387e-03 3.471460e-03 5.690136e-04 
-6.451308e-03 2.753682e-03 2.653732e-03 
-1.415097e-02 1.355036e-02 -3.004549e-03 
-4.435359e-03 4.595120e-03 -1.390850e-03 
5.502355e-04 6.484977e-03 -9.011700e-03 
8.395250e-03 -1.204031e-02 7.077014e-03 
-6.009052e-03 -1.153260e-03 7.309446e-03 
-8.956116e-03 3.559014e-03 4.705006e-03 
3.893213e-03 1.589626e-03 -5.873631e-03 
6.087110e-03 3.261221e-03 -1.022738e-02 
1.204822e-02 -9.773520e-03 6.647220e-04 
3.245240e-03 1.929005e-04 -3.716943e-03 
-3.349070e-03 1.130839e-02 -1.050348e-02 
1.379454e-03 9.871614e-03 -1.435123e-02 
1.096647e-02 2.056787e-03 -1.342836e-02 
2.548721e-03 -2.848435e-03 1.091999e-03 
-2.325223e-02 9.059383e-03 1.158230e-02 
-4.217486e-03 3.037651e-04 4.247807e-03 
3.400062e-03 5.858064e-03 -1.065970e-02 
-2.782464e-03 7.990297e-03 -7.213022e-03 
-8.440797e-03 9.398204e-03 -3.503029e-03 
-9.465122e-04 1.590903e-02 -1.943471e-02 
-2.749329e-03 -7.187036e-03 1.223128e-02 
-4.120936e-03 9.516695e-03 -8.223344e-03 
-5.475382e-03 1.932606e-02 -1.909060e-02 
-1.393775e-02 1.831385e-02 -9.551506e-03 
-1.211826e-03 4.889788e-04 4.191636e-04 
-2.984234e-03 -5.243756e-03 9.482967e-03 
-3.847675e-03 1.241141e-02 -1.233593e-02 
-6.371858e-03 1.440891e-03 4.445899e-03 
4.168934e-03 -8.171308e-03 6.108042e-03 
-1.092229e-02 2.895820e-03 6.740539e-03 
7.329354e-03 -4.309102e-04 -6.851376e-03 
-1.337093e-02 2.335475e-02 -1.708900e-02 
1.791726e-02 -7.306291e-03 -8.712606e-03 
-2.542449e-03 5.487229e-03 -4.615909e-03 
-5.664731e-03 -1.192259e-02 2.072028e-02 
-1.265551e-02 1.012109e-02 -4.403375e-04 
1.382310e-02 -1.385341e-02 4.031839e-03 
5.845505e-03 3.694013e-03 -1.068407e-02 
5.961430e-05 5.868620e-03 -7.483355e-03 
-9.463804e-03 2.050262e-02 -1.682985e-02 
4.855785e-03 1.013416e-02 -1.791803e-02 
-1.052003e-02 9.866568e-03 -1.545445e-03 
-7.459625e-03 -2.578624e-04 7.767735e-03 
-3.113803e-04 -2.330691e-03 3.080211e-03 
-4.300407e-03 1.230341e-03 2.531001e-03 
3.595071e-04 7.270985e-03 -9.820402e-03 
3.601359e-03 -2.073702e-03 -1.102616e-03 
-4.282237e-03 7.877438e-03 -5.321881e-03 
-9.999679e-04 -1.353804e-02 1.876022e-02 
1.342105e-03 -1.338806e-02 1.518482e-02 
-3.093414e-03 8.533629e-05 2.902764e-03 
-1.073081e-02 8.755701e-04 9.485378e-03 
-1.141714e-03 6.543149e-03 -7.211034e-03 
4.242742e-03 4.524530e-03 -9.430509e-03 
-1.062721e-02 -1.150515e-02 2.499882e-02 
-2.673596e-02 5.544937e-03 1.921093e-02 
-1.320166e-03 5.374888e-03 -5.426596e-03 
-9.410131e-03 6.755488e-03 5.894457e-04 
-5.170258e-03 1.943114e-03 3.061227e-03 
4.498916e-03 -1.179460e-02 1.107695e-02 
8.549841e-03 -2.114862e-03 -5.725919e-03 
5.009121e-03 5.953258e-04 -5.300643e-03 
-1.322786e-02 5.553554e-03 5.538896e-03 
7.395560e-04 -7.720829e-04 2.404584e-04 
9.425827e-03 -1.582673e-02 1.088137e-02 
1.323626e-02 -9.480885e-03 -1.051582e-03 
-5.666296e-04 -7.072472e-03 9.595408e-03 
-6.344682e-03 7.102239e-03 -2.493948e-03 
-4.197574e-03 9.803719e-03 -8.238997e-03 
-4.896111e-04 1.032641e-02 -1.318520e-02 
-4.048168e-03 2.765380e-03 8.620281e-04 
-1.507482e-02 -7.574911e-03 2.365520e-02 
1.962377e-03 2.402784e-03 -4.981689e-03 
-1.411899e-02 1.303891e-02 -2.976493e-03 
-8.265763e-04 2.817408e-03 -2.858076e-03 
-1.128029e-03 4.320815e-03 -4.022008e-03 
1.468136e-03 -4.062137e-04 -8.490667e-04 
-5.309680e-04 3.058887e-03 -3.205277e-03 
9.011983e-03 1.375943e-02 -2.675503e-02 
1.382869e-02 -8.278266e-03 -3.597870e-03 
1.167760e-02 -7.376355e-03 -1.815524e-03 
-5.117328e-03 5.793182e-03 -2.048055e-03 
1.263589e-02 -5.557997e-03 -5.134820e-03 
1.412193e-03 1.056624e-03 -2.534597e-03 
1.053054e-02 -8.288019e-03 6.057221e-04 
-3.858728e-03 -9.522752e-03 1.532218e-02 
-9.627644e-05 -7.332079e-03 9.496695e-03 
-8.304233e-03 6.445593e-03 7.584145e-04 
-1.253690e-02 4.960328e-03 6.476492e-03 
3.941504e-03 4.540377e-03 -9.770983e-03 
-7.159044e-03 -4.720077e-03 1.269416e-02 
-1.930172e-03 -4.421275e-03 7.596566e-03 
-5.962414e-03 -4.095062e-03 1.127899e-02 
8.271720e-03 -9.587266e-03 4.378262e-03 
-1.335619e-02 7.821429e-03 3.244455e-03 
6.668690e-03 -7.244774e-03 2.491745e-03 
1.256075e-02 1.373954e-03 -1.379135e-02 
1.846232e-03 9.545935e-04 -2.867275e-03 
-4.818923e-03 2.010644e-03 2.039944e-03 
1.042981e-03 -2.797712e-03 2.412285e-03 
-8.147428e-03 7.905699e-03 -2.159873e-03 
1.004763e-03 -2.570275e-03 2.338231e-03 
-1.357727e-02 -1.137754e-02 2.789435e-02 
7.971362e-03 2.289512e-03 -1.078722e-02 
-1.701503e-02 1.034399e-02 3.809499e-03 
4.407312e-03 -1.054913e-02 9.325487e-03 
1.345370e-02 -7.183092e-03 -4.390997e-03 
1.434123e-03 5.871842e-03 -8.858163e-03 
2.272311e-02 -8.344654e-03 -1.225710e-02 
8.288333e-03 -8.568822e-03 2.921101e-03 
-8.935889e-03 6.269904e-03 1.205337e-03 
8.429638e-03 -7.551102e-03 1.436082e-03 
-1.520858e-02 1.547188e-03 1.354868e-02 
1.448810e-02 -1.027211e-02 -1.089976e-03 
1.321125e-02 -8.093734e-03 -2.131555e-03 
-8.936575e-03 7.158635e-03 -3.659157e-04 
1.117085e-02 -2.739483e-03 -7.344710e-03 
4.485873e-06 -3.684128e-03 4.899051e-03 
-2.184014e-03 6.908778e-03 -6.456836e-03 
1.180971e-02 -8.462817e-04 -1.101761e-02 
-4.242176e-03 8.510324e-03 -6.385735e-03 
1.596916e-02 -2.410194e-02 1.461633e-02 
-8.703523e-03 1.412534e-02 -9.801717e-03 
1.201486e-02 -7.260221e-03 -2.421198e-03 
5.890704e-03 -5.113065e-03 1.111341e-03 
-9.509402e-03 1.739096e-02 -1.327801e-02 
6.416961e-03 1.523453e-03 -8.560579e-03 
4.704731e-03 -1.898120e-03 -2.313033e-03 
1.370615e-02 -5.318182e-04 -1.289296e-02 
2.187046e-03 -1.938697e-03 1.785946e-04 
1.937084e-02 -5.175599e-03 -1.263587e-02 
1.431836e-04 -4.000231e-03 4.900622e-03 
-1.568619e-02 5.721961e-03 8.210477e-03 
-8.119098e-04 1.347581e-02 -1.640713e-02 
3.149644e-03 -8.433838e-03 7.926441e-03 
-1.112244e-02 9.552719e-03 -1.619556e-03 
5.299110e-03 -9.173631e-03 6.739467e-03 
1.509677e-02 -1.069628e-02 -1.471779e-03 
-4.194435e-03 6.285890e-03 -4.206876e-03 
1.328037e-02 -1.573741e-02 6.504335e-03 
-9.240477e-04 -2.554544e-03 3.969728e-03 
1.177094e-03 -1.177892e-03 3.865196e-04 
-1.209706e-02 7.181484e-03 2.764012e-03 
4.700468e-03 7.781295e-03 -1.455756e-02 
-2.154705e-03 -9.936106e-04 3.486284e-03 
-5.053108e-03 1.327404e-03 3.500613e-03 
1.255823e-02 -7.569199e-03 -2.572367e-03 
-1.138907e-02 6.619130e-03 2.453412e-03 
3.875829e-03 -5.973601e-03 3.317538e-03 
-3.258928e-03 5.378086e-03 -3.725607e-03 
-1.338527e-03 1.527855e-02 -1.775815e-02 
1.807297e-03 -2.533734e-03 1.258229e-03 
-1.294589e-02 4.274012e-03 6.791533e-03 
9.977243e-04 -6.478876e-03 6.916528e-03 
-8.099874e-03 6.981014e-03 -8.118035e-04 
-8.748757e-03 4.326464e-03 3.571073e-03 
-6.739057e-04 -4.209072e-03 6.124958e-03 
-2.275910e-02 1.703833e-02 9.304762e-04 
-3.588237e-03 9.996649e-04 2.322449e-03 
3.779839e-03 4.742047e-03 -1.013762e-02 
-5.740334e-03 6.687516e-03 -2.714855e-03 
1.014766e-02 -6.378452e-03 -1.745345e-03 
-4.778621e-03 5.923605e-03 -2.889959e-03 
3.467586e-03 8.694102e-03 -1.426182e-02 
-9.203088e-03 3.930674e-03 4.368543e-03 
-1.393272e-02 1.521124e-02 -5.821705e-03 
-1.135551e-02 -1.943200e-03 1.348699e-02 
-4.098165e-03 7.865540e-04 3.368737e-03 
1.199353e-02 2.886203e-04 -1.253405e-02 
5.873077e-03 -2.785114e-03 -2.468262e-03 
5.622057e-03 -3.632193e-03 -9.188499e-04 
-6.472260e-03 1.140693e-02 -8.591739e-03 
-5.230815e-03 6.114735e-03 -2.192290e-03 
-8.547897e-03 3.892432e-04 7.858957e-03 
7.949756e-03 -8.594665e-03 2.966596e-03 
2.532316e-03 -2.868801e-03 1.264365e-03 
-1.347296e-03 7.203192e-03 -7.754013e-03 
-2.986963e-03 1.213044e-03 1.539433e-03 
-1.292987e-02 2.341857e-03 9.787258e-03 
2.229232e-02 -2.167646e-02 5.792325e-03 
4.070667e-03 -8.048661e-04 -2.991915e-03 
-7.791364e-03 1.205157e-02 -7.504543e-03 
-1.104827e-03 -3.295976e-03 4.833208e-03 
-1.253797e-02 -5.882197e-03 1.970261e-02 
1.065680e-03 1.662973e-04 -1.222023e-03 
1.266511e-02 -1.441969e-03 -1.105501e-02 
-3.550142e-03 -7.631068e-04 4.782177e-03 
6.152048e-03 -4.317491e-03 -8.825582e-05 
1.886220e-03 3.638316e-03 -6.116431e-03 
-6.000832e-03 1.006807e-02 -6.765665e-03 
-2.502080e-03 7.691645e-03 -7.573998e-03 
2.382464e-03 -6.016947e-03 5.654430e-03 
4.089588e-03 1.768414e-03 -5.694238e-03 
-6.569870e-03 2.120515e-02 -2.033030e-02 
1.677297e-02 -5.155191e-03 -9.641800e-03 
-1.127494e-02 -8.564096e-03 2.206095e-02 
2.507077e-03 2.783021e-03 -5.548457e-03 
3.587318e-03 -4.156416e-03 1.765363e-03 
-5.014808e-04 1.114538e-04 4.222744e-04 
2.389910e-03 -6.528883e-03 6.189659e-03 
-7.135457e-03 1.153390e-02 -7.642760e-03 
-5.791280e-03 5.910096e-04 4.971440e-03 
-1.999322e-02 8.798879e-04 1.871542e-02 
3.484942e-03 -3.833077e-03 1.401005e-03 
-3.761417e-03 -4.315203e-03 8.468987e-03 
-3.363488e-03 9.360872e-03 -8.437607e-03 
8.164380e-04 1.072231e-02 -1.422813e-02 
6.548275e-03 -2.645239e-03 -3.224677e-03 
-2.343658e-03 3.378397e-03 -1.923201e-03 
5.099563e-03 -3.980611e-03 -1.150516e-04 
-8.849376e-04 6.462365e-04 -4.283950e-04 
4.753386e-03 -1.182786e-02 1.036029e-02 
-4.404444e-03 4.835000e-03 -1.824864e-03 
1.201017e-02 8.940242e-03 -2.308296e-02 
1.792515e-02 -3.399303e-03 -1.334333e-02 
-1.214294e-02 2.272003e-03 9.790436e-03 
3.733243e-03 -3.712347e-05 -3.632994e-03 
-2.206787e-03 -1.102935e-02 1.663275e-02 
-9.807247e-03 1.558963e-02 -1.022254e-02 
6.359604e-04 6.855207e-03 -9.456583e-03 
1.813186e-02 -1.752668e-03 -1.549141e-02 
-7.178153e-03 -3.187155e-03 1.081800e-02 
4.096353e-05 2.762281e-03 -3.311202e-03 
-2.667559e-03 2.529781e-03 -3.364648e-04 
-7.339009e-04 -2.258512e-03 3.542274e-03 
-1.723077e-02 1.624907e-02 -3.621345e-03 
7.330931e-03 3.122546e-03 -1.131843e-02 
-5.910353e-03 6.989811e-03 -2.792750e-03 
2.628824e-03 -1.364704e-03 -1.345188e-03 
-1.038769e-02 7.206950e-03 9.777261e-04 
-4.101094e-03 -6.755706e-04 5.312499e-03 
7.525098e-03 -1.670263e-02 1.331612e-02 
-5.259573e-04 5.092185e-03 -6.126132e-03 
-6.547237e-04 -2.619835e-03 4.099646e-03 
9.201483e-03 -8.880281e-03 2.016158e-03 
1.269032e-03 -5.203755e-03 5.683482e-03 
-1.033895e-02 8.903703e-03 -9.240499e-04 
-4.127734e-03 -7.733615e-03 1.401140e-02 
1.245430e-02 -4.443197e-03 -6.696380e-03 
-4.860056e-03 3.006292e-04 4.208736e-03 
-1.356711e-02 1.106330e-02 -1.038633e-03 
-2.452840e-04 -1.727037e-03 2.510972e-03 
-8.624792e-03 1.594415e-02 -1.212215e-02 
-1.772730e-02 5.334031e-03 1.045016e-02 
-1.305428e-02 8.383903e-03 2.192434e-03 
-9.180987e-03 -1.915686e-03 1.175098e-02 
1.984727e-03 3.605438e-03 -6.884732e-03 
1.185397e-02 -3.435666e-03 -7.392781e-03 
-6.018213e-03 4.229425e-03 1.074584e-03 
-4.333142e-03 1.027091e-03 2.332075e-03 
3.934451e-03 -6.912615e-03 4.598585e-03 
-1.739250e-03 -2.486205e-03 5.043961e-03 
-4.128451e-03 -9.751784e-03 1.682944e-02 
-1.125315e-02 1.155693e-02 -3.978268e-03 
3.890421e-03 1.945339e-03 -6.644745e-03 
-1.894732e-03 5.518589e-03 -4.944657e-03 
7.583238e-03 -4.683089e-03 -1.791027e-03 
-3.151253e-03 -4.946567e-03 9.588246e-03 
5.345866e-03 -2.486402e-03 -2.312745e-03 
-3.958187e-03 1.364090e-02 -1.316899e-02 
4.509388e-03 3.241555e-03 -8.453396e-03 
-7.810871e-03 6.810225e-03 -6.847674e-04 
-3.437906e-03 1.008766e-02 -9.944674e-03 
2.663971e-03 -3.089591e-04 -2.369049e-03 
-7.840163e-03 3.870651e-03 2.943929e-03 
4.222619e-03 1.609434e-03 -6.596562e-03 
-2.400931e-03 -2.603923e-04 3.009592e-03 
7.731632e-04 -3.340570e-03 2.953900e-03 
2.815924e-04 1.821650e-02 -2.371485e-02 
-5.213522e-03 -1.866459e-04 5.290115e-03 
1.595763e-03 -4.973441e-03 4.727735e-03 
-4.873143e-03 2.882568e-03 9.231930e-04 
-1.687060e-03 -4.893704e-03 8.244655e-03 
7.698623e-03 -1.585823e-02 1.252801e-02 
1.503029e-02 -6.524719e-03 -6.694453e-03 
1.612550e-03 6.815261e-03 -1.036459e-02 
9.683561e-03 -1.659141e-02 1.167147e-02 
-1.358428e-02 1.030782e-02 8.778203e-05 
-9.411803e-03 1.232887e-02 -6.629283e-03 
-2.252331e-03 -5.639383e-03 9.757365e-03 
-9.319468e-03 2.877494e-03 5.490370e-03 
3.132348e-03 -4.211981e-03 1.964034e-03 
-4.220936e-03 5.296008e-03 -2.450264e-03 
-3.731947e-03 3.481823e-03 -5.594083e-04 
-1.779258e-02 3.697220e-03 1.326524e-02 
-7.467655e-03 -9.892219e-03 2.017288e-02 
-2.216723e-03 4.355885e-03 -3.652947e-03 
-1.468879e-02 4.907206e-03 8.074189e-03 
-7.803303e-03 1.937044e-04 7.281079e-03 
-6.191834e-03 -1.472067e-02 2.522997e-02 
-4.761243e-03 7.484335e-03 -4.672303e-03 
-6.614469e-04 -7.456087e-04 1.901328e-03 
-3.921224e-03 1.981689e-03 1.415714e-03 
2.541084e-03 1.394357e-03 -4.573744e-03 
-1.532835e-03 -7.233953e-03 1.088886e-02 
-4.720722e-03 5.719810e-03 -2.516548e-03 
-3.379197e-03 6.346936e-03 -4.194293e-03 
3.357465e-03 6.549300e-03 -1.210886e-02 
-6.697059e-03 4.083642e-03 1.302500e-03 
-1.230147e-02 3.597356e-03 7.730173e-03 
-1.918384e-03 2.596349e-03 -1.100662e-03 
-2.228333e-03 4.528210e-03 -3.017996e-03 
-1.240432e-03 2.184089e-03 -1.774381e-03 
1.556788e-03 -4.310286e-03 4.593679e-03 
7.840728e-03 2.084759e-03 -1.006778e-02 
-7.232769e-03 6.308640e-03 -1.112729e-03 
9.136268e-03 -9.308218e-04 -7.975510e-03 
-5.790965e-04 4.237595e-03 -4.732060e-03 
-1.528726e-02 4.750750e-03 9.213504e-03 
3.129899e-03 -4.537223e-03 2.936433e-03 
-3.200577e-03 3.265698e-03 -3.826323e-04 
-1.481106e-02 8.400799e-03 3.875893e-03 
2.747104e-03 -5.467859e-03 4.207687e-03 
-1.009196e-02 -1.614660e-03 1.193255e-02 
-1.645989e-02 1.172063e-02 1.906540e-03 
3.526775e-03 6.577345e-03 -1.209549e-02 
-6.243967e-04 2.029225e-02 -2.514860e-02 
-8.917211e-03 1.860640e-02 -1.507875e-02 
-7.069800e-03 6.143628e-03 -1.111074e-03 
-1.306654e-02 3.037651e-03 9.609417e-03 
1.396177e-02 -7.937959e-03 -3.576260e-03 
5.734294e-04 4.427315e-03 -5.653315e-03 
-1.931391e-02 2.027284e-02 -7.070981e-03 
-1.333766e-02 -2.053806e-03 1.595545e-02 
1.676913e-02 -5.580455e-03 -9.358962e-03 
2.591715e-03 1.684178e-03 -4.450405e-03 
7.157909e-04 3.297731e-03 -5.141506e-03 
-3.694102e-04 3.093444e-03 -4.291894e-03 
-2.385460e-03 -1.576641e-03 3.423478e-03 
6.974865e-04 3.344523e-03 -5.283274e-03 
2.144362e-03 -2.352978e-03 6.535444e-04 
6.399548e-03 -4.573612e-04 -5.885829e-03 
-4.235151e-03 -9.678102e-03 1.628483e-02 
-2.291778e-03 -1.459887e-03 3.391582e-03 
2.222134e-02 -1.484342e-02 -2.853666e-03 
2.236586e-03 -1.896300e-03 1.044367e-03 
6.178575e-03 1.080263e-02 -1.981259e-02 
2.282427e-03 3.132998e-03 -5.585679e-03 
6.768962e-03 -7.116596e-04 -5.420953e-03 
-7.684513e-03 1.697320e-02 -1.393320e-02 
2.490545e-04 -7.214750e-03 9.439203e-03 
-7.632202e-04 -5.427079e-03 7.941244e-03 
7.105171e-03 -6.668954e-03 1.563998e-03 
-5.692273e-03 -7.705978e-04 6.769291e-03 
-7.822528e-03 -2.151185e-03 1.095814e-02 
-6.459847e-03 -5.175993e-03 1.311853e-02 
-5.099365e-03 4.733593e-03 -1.368877e-03 
-7.755176e-03 6.350993e-03 -3.124712e-04 
-9.595776e-03 1.281918e-02 -7.359621e-03 
1.218305e-02 -8.352590e-03 -5.313736e-04 
1.029493e-03 -4.201883e-03 3.839778e-03 
7.892309e-03 -1.896969e-03 -5.361642e-03 
-1.609813e-02 6.568327e-03 7.332809e-03 
6.132403e-03 -5.402862e-04 -5.302718e-03 
1.201793e-02 -3.717519e-03 -7.162015e-03 
1.735324e-03 4.441549e-03 -7.475132e-03 
-1.548242e-03 2.531920e-03 -1.587581e-03 
-5.275077e-03 4.642785e-03 -5.702377e-04 
1.401264e-02 -6.097697e-03 -6.541931e-03 
-1.339422e-02 3.306085e-03 8.940133e-03 
-2.349585e-03 -1.309265e-03 4.462924e-03 
1.298948e-03 -6.450945e-03 7.004345e-03 
3.443855e-03 -3.780970e-03 1.652377e-03 
-1.248463e-02 5.833674e-03 4.944962e-03 
1.225428e-02 -1.411709e-02 6.042203e-03 
-1.932081e-03 4.909879e-03 -3.903464e-03 
9.080549e-04 -5.877652e-04 9.390672e-05 
8.697819e-03 -1.607573e-02 1.201404e-02 
-1.313264e-03 3.861511e-03 -4.181757e-03 
-3.460575e-03 -1.167205e-02 1.811348e-02 
-3.470015e-04 -2.292872e-04 1.147948e-03 
3.552840e-03 -4.658069e-03 2.266538e-03 
1.111637e-02 2.241590e-03 -1.379284e-02 
8.389629e-03 -7.077651e-03 9.467110e-04 
-8.987867e-03 2.917554e-04 8.483121e-03 
6.157181e-03 4.511489e-03 -1.206595e-02 
2.682358e-03 1.292112e-03 -4.497713e-03 
-6.553360e-04 6.265626e-03 -7.154429e-03 
-7.515944e-03 -4.700347e-03 1.358350e-02 
1.203177e-04 8.816684e-03 -1.148463e-02 
1.714921e-03 -3.596574e-03 2.722949e-03 
1.369015e-03 -4.569916e-03 4.648470e-03 
9.270795e-03 -2.405205e-03 -5.705734e-03 
-1.302404e-02 9.119066e-03 1.481806e-03 
-9.035925e-03 8.323078e-03 -1.342303e-03 
5.836849e-03 -5.486924e-03 1.086808e-03 
-1.021312e-02 9.093798e-04 9.300938e-03 
-1.841106e-02 1.678389e-02 -2.733484e-03 
3.041538e-03 -2.879452e-03 9.250403e-04 
3.251293e-03 -5.859331e-03 4.194289e-03 
1.019934e-02 -2.218602e-03 -7.526519e-03 
3.047804e-03 -3.541380e-03 1.678708e-03 
5.573322e-03 -9.445595e-03 6.807756e-03 
-8.702378e-03 4.251552e-03 3.319235e-03 
-2.647733e-03 3.570355e-03 -2.972192e-03 
-1.546510e-02 1.208244e-03 1.382919e-02 
5.500954e-03 -1.770471e-03 -3.404657e-03 
5.617682e-03 -7.818707e-03 4.702052e-03 
-7.115823e-03 2.303647e-03 3.921859e-03 
-1.392139e-03 4.604269e-03 -4.469945e-03 
-7.740073e-03 6.634872e-03 -9.254762e-04 
8.807650e-03 -8.232999e-03 2.132128e-03 
-1.024387e-03 -2.016114e-03 3.290456e-03 
-4.070702e-03 6.204190e-03 -4.055748e-03 
9.915860e-03 -3.762161e-03 -4.873559e-03 
8.117235e-03 -1.843610e-02 1.543852e-02 
4.666137e-03 -5.559625e-03 2.361277e-03 
1.517529e-02 -5.858502e-03 -7.407364e-03 
8.756839e-03 1.986098e-03 -1.103398e-02 
-1.524359e-02 1.253210e-02 -1.337372e-03 
1.193785e-02 -4.916480e-03 -5.726548e-03 
6.127586e-03 -2.331881e-03 -3.245540e-03 
1.050740e-03 -1.522332e-03 1.241387e-03 
4.104766e-03 -2.948177e-03 -4.644510e-04 
-6.562950e-03 5.915124e-03 -9.349084e-04 
-6.171700e-03 3.438849e-03 1.809411e-03 
1.916520e-03 -1.232538e-02 1.411388e-02 
-5.346196e-04 -1.909640e-03 2.902379e-03 
4.345940e-04 -6.243395e-03 7.199850e-03 
-1.101425e-02 3.883420e-04 1.071450e-02 
1.614072e-02 -1.200891e-02 -5.750904e-04 
-8.491731e-04 -2.785420e-03 4.377826e-03 
-3.379765e-03 4.042891e-03 -1.766813e-03 
5.114328e-03 -2.995233e-03 -1.208600e-03 
-5.986200e-03 -1.281597e-02 2.238128e-02 
-1.781459e-02 8.856035e-04 1.688093e-02 
1.901859e-03 -5.582142e-03 5.120492e-03 
-1.031943e-02 1.333971e-02 -6.824012e-03 
6.562184e-03 4.922050e-04 -7.369877e-03 
5.831294e-03 -3.892466e-03 -5.658328e-04 
-8.400630e-03 8.564904e-03 -2.742463e-03 
1.477175e-03 2.940328e-03 -4.994204e-03 
-4.391176e-03 3.400453e-03 1.880161e-04 
-5.072035e-03 4.127257e-03 -5.157843e-05 
-6.175374e-03 -1.364511e-02 2.331696e-02 
7.151102e-04 4.696699e-03 -6.977788e-03 
-4.831250e-03 7.391456e-03 -4.799127e-03 
2.309916e-03 2.861573e-03 -6.099286e-03 
1.250005e-02 -1.180561e-02 2.724707e-03 
1.472739e-02 -2.001248e-02 1.123465e-02 
1.268921e-02 -5.708632e-03 -5.379057e-03 
2.111967e-03 3.649789e-03 -6.918291e-03 
-1.120817e-02 1.049534e-02 -2.119341e-03 
-3.776663e-03 1.117373e-02 -1.048873e-02 
-3.260587e-04 -9.950947e-04 1.477802e-03 
-6.939031e-03 2.281141e-03 4.311013e-03 
5.107963e-03 -5.545992e-03 1.954392e-03 
-2.548688e-03 4.955034e-03 -4.030836e-03 
1.025853e-04 -7.383489e-03 9.262035e-03 
8.391567e-03 -4.872420e-03 -2.395786e-03 
-3.831600e-03 4.338377e-04 2.997923e-03 
-2.278483e-03 8.424932e-03 -8.586400e-03 
-2.916914e-03 -7.850562e-03 1.285294e-02 
1.291773e-02 9.128595e-04 -1.441646e-02 
1.564361e-03 -1.103139e-02 1.278178e-02 
2.093407e-03 2.876031e-03 -6.136357e-03 
-1.180851e-03 3.944184e-03 -5.230159e-03 
1.068888e-02 -1.272529e-02 5.768328e-03 
6.076335e-03 -1.260348e-03 -4.447933e-03 
4.565912e-03 -2.383175e-03 -1.673968e-03 
4.064467e-03 1.212008e-02 -1.934959e-02 
4.062598e-04 -4.486958e-03 5.216000e-03 
5.242258e-03 -3.623630e-03 1.806128e-03 
2.783289e-04 -2.859932e-03 3.322707e-03 
5.671753e-03 -6.167584e-03 1.884827e-03 
-7.870117e-03 1.429092e-02 -1.046252e-02 
2.055464e-03 -2.797344e-03 1.643861e-03 
-2.494519e-04 -1.278831e-02 1.675381e-02 
-3.775015e-04 5.641997e-03 -7.010609e-03 
-5.263189e-03 1.483174e-02 -1.316213e-02 
7.184978e-03 3.971734e-03 -1.209795e-02 
8.045888e-03 -8.050930e-03 2.188295e-03 
2.538472e-03 -1.292776e-02 1.401502e-02 
-6.253405e-04 6.057524e-03 -7.034114e-03 
-7.768913e-03 -1.714157e-03 1.003142e-02 
-6.074952e-03 1.142257e-02 -7.472172e-03 
-4.532654e-04 9.133374e-04 -6.049034e-04 
3.599958e-03 1.637468e-03 -5.856381e-03 
1.067971e-02 -1.606368e-02 9.634080e-03 
-9.016410e-03 1.320941e-02 -7.781904e-03 
1.160188e-02 -2.100981e-02 1.514149e-02 
-6.456668e-03 1.480257e-02 -1.321565e-02 
2.347381e-03 8.367722e-03 -1.327673e-02 
7.312989e-04 -3.854264e-03 4.095289e-03 
4.551528e-03 -1.779223e-02 1.777864e-02 
2.112379e-03 -2.439313e-03 9.689790e-04 
6.382926e-04 -1.601886e-03 1.123258e-03 
-6.739190e-04 1.575317e-03 -2.343586e-03 
1.929349e-03 -7.118050e-04 -1.248034e-03 
-7.542937e-03 1.014268e-02 -5.441706e-03 
-8.673679e-04 -5.904576e-03 8.343611e-03 
5.854182e-03 -2.990511e-03 -2.054961e-03 
-2.281332e-03 -4.569453e-04 2.639313e-03 
-2.579766e-03 -5.249321e-03 9.411081e-03 
1.419730e-02 -2.334461e-02 1.626855e-02 
-1.826032e-03 -5.414321e-03 8.454943e-03 
4.495615e-03 -4.909221e-03 1.382162e-03 
3.649669e-03 3.436040e-03 -8.640924e-03 
3.050141e-03 1.468083e-03 -6.096245e-03 
-2.407405e-03 9.309609e-03 -9.757375e-03 
1.427904e-03 1.411265e-03 -3.168575e-03 
-1.044603e-03 -3.245886e-03 5.462078e-03 
7.395081e-03 2.728598e-03 -1.153097e-02 
1.521852e-03 -1.765995e-03 5.609386e-04 
-1.304913e-02 1.431574e-03 1.103433e-02 
-2.489707e-03 4.261088e-03 -3.465565e-03 
-3.751096e-03 8.579658e-03 -7.362364e-03 
-2.916238e-03 4.080657e-03 -2.314865e-03 
-4.805109e-03 -6.360521e-03 1.266645e-02 
1.827269e-02 -1.020042e-02 -5.029967e-03 
4.348566e-03 -2.257709e-03 -1.102316e-03 
4.909946e-03 -1.103208e-03 -3.374100e-03 
9.107474e-03 -3.528333e-03 -4.741399e-03 
1.820700e-04 -6.278597e-03 7.689597e-03 
3.062135e-03 1.410893e-03 -5.887879e-03 
1.082019e-03 -5.086383e-03 6.132204e-03 
-3.563362e-03 1.730487e-03 1.325014e-03 
3.814403e-03 2.333915e-03 -7.590799e-03 
-9.016597e-03 5.257526e-03 2.333111e-03 
-3.057902e-03 4.214522e-03 -2.449719e-03 
3.903831e-03 -4.421248e-03 1.766799e-03 
1.058826e-02 -5.985243e-03 -2.935159e-03 
-2.697955e-03 6.938786e-03 -6.148872e-03 
-1.289080e-03 -6.531828e-03 1.013217e-02 
4.186946e-03 -5.519069e-03 2.747755e-03 
2.588013e-03 7.446502e-03 -1.214765e-02 
-1.087229e-03 2.834320e-04 -3.630406e-05 
-3.965322e-03 -5.876104e-04 4.333925e-03 
8.590247e-03 -3.466507e-03 -3.742840e-03 
-7.813990e-03 4.433132e-03 1.533855e-03 
-1.193126e-02 4.711097e-03 5.645702e-03 
4.415396e-03 8.435313e-03 -1.606163e-02 
-1.982704e-02 4.584993e-03 1.380846e-02 
-1.380626e-03 -1.072025e-02 1.514244e-02 
1.949635e-03 9.591062e-04 -3.340169e-03 
-1.209616e-03 2.771449e-03 -2.575497e-03 
6.498569e-04 4.473681e-03 -6.402075e-03 
4.295391e-03 3.437118e-03 -8.321049e-03 
1.170411e-03 8.253265e-03 -1.131590e-02 
-1.793839e-03 -1.922649e-03 4.731090e-03 
7.782247e-05 6.480231e-03 -8.423590e-03 
1.081928e-02 1.351653e-03 -1.272267e-02 
8.885756e-04 -9.336306e-03 1.131095e-02 
-8.165124e-03 3.453195e-03 3.340288e-03 
8.173421e-03 -5.155865e-03 -4.231005e-04 
-4.748546e-03 -2.171298e-03 7.274998e-03 
-9.612713e-03 1.070170e-02 -4.563434e-03 
6.797479e-03 -1.085186e-02 6.984097e-03 
3.549499e-04 6.836074e-03 -9.410459e-03 
-2.691998e-03 7.764541e-03 -7.466435e-03 
-6.552785e-03 5.662193e-03 -1.362426e-03 
-8.607823e-03 1.056666e-02 -4.836302e-03 
-2.184323e-03 8.256703e-04 1.102626e-03 
-5.050786e-03 2.949777e-03 9.946374e-04 
1.297912e-03 8.420971e-03 -1.184941e-02 
-2.870027e-03 5.080414e-03 -3.665274e-03 
6.068667e-03 -2.028666e-03 -4.256171e-03 
-6.902278e-06 6.718993e-03 -8.469172e-03 
-3.098150e-03 -9.371740e-03 1.518351e-02 
-8.338903e-04 -1.300176e-02 1.721554e-02 
-4.155519e-03 -5.892482e-04 4.347233e-03 
4.346084e-03 -1.284691e-03 -2.684779e-03 
-5.368885e-04 1.659856e-03 -1.435826e-03 
1.304168e-02 -1.099085e-02 7.971217e-04 
4.698699e-04 -3.995734e-03 4.708284e-03 
-2.304476e-03 3.013439e-03 -1.618920e-03 
9.626929e-04 1.720632e-03 -3.236405e-03 
-1.260530e-02 -3.005452e-03 1.654812e-02 
9.179522e-03 -4.863291e-03 -3.200941e-03 
5.157859e-03 4.497673e-03 -1.091780e-02 
1.599894e-03 6.684011e-05 -1.929795e-03 
3.679723e-03 -6.954492e-03 5.485989e-03 
3.907159e-03 2.130234e-03 -6.454147e-03 
1.126426e-02 -3.717810e-03 -6.353141e-03 
9.715684e-03 -3.883860e-03 -5.082516e-03 
-8.306908e-03 1.310300e-02 -8.490690e-03 
5.515330e-05 6.086614e-03 -7.447518e-03 
-5.050579e-03 -5.474563e-03 1.156242e-02 
-5.686351e-03 -4.903954e-03 1.162154e-02 
8.713294e-04 3.279530e-03 -5.389422e-03 
5.502585e-03 -9.969783e-03 7.316000e-03 
1.561031e-02 -1.169750e-02 9.758322e-05 
4.956959e-03 1.086586e-02 -1.856691e-02 
7.527716e-04 -9.444733e-04 6.580783e-04 
6.630477e-03 6.964603e-03 -1.533068e-02 
-1.484480e-03 8.993821e-03 -1.015844e-02 
-1.158796e-02 7.920919e-03 1.628445e-03 
-3.700737e-03 7.114815e-03 -6.200061e-03 
-3.963492e-03 6.033521e-03 -3.838857e-03 
4.287715e-03 -3.351825e-04 -4.039758e-03 
4.950810e-03 -5.332106e-03 1.074407e-03 
-9.751927e-04 5.155592e-03 -5.158506e-03 
-2.239022e-03 2.202733e-03 -7.601082e-04 
-3.101753e-03 -3.999800e-03 7.938496e-03 
-2.713367e-03 1.529744e-04 3.098724e-03 
5.075727e-03 -6.214114e-03 2.553960e-03 
5.783069e-03 -3.577767e-03 -8.264493e-04 
-6.904463e-04 1.657196e-03 -1.575452e-03 
-2.601271e-03 2.184563e-03 -4.992650e-05 
5.041846e-03 -5.880238e-03 3.525792e-03 
7.396451e-03 -6.677839e-04 -6.413744e-03 
-8.658474e-03 -9.217499e-04 9.494635e-03 
4.043115e-03 -1.297537e-02 1.240970e-02 
6.686717e-04 -3.279225e-04 -1.744058e-04 
-7.601038e-03 1.048972e-02 -6.211060e-03 
9.517791e-04 3.337129e-03 -5.014438e-03 
-1.125932e-02 1.775102e-02 -1.147041e-02 
-1.197000e-02 9.421572e-03 -3.581354e-04 
-2.095068e-03 5.243468e-03 -4.973897e-03 
-6.418383e-03 9.181688e-03 -5.595004e-03 
-1.363248e-03 -1.080678e-03 2.620267e-03 
-7.322063e-04 2.179866e-03 -2.530786e-03 
6.279525e-03 -4.940937e-03 1.926063e-04 
-1.142972e-03 7.650498e-04 5.617220e-05 
-4.154524e-03 6.411125e-03 -3.744210e-03 
-9.334415e-03 8.915521e-03 -1.629779e-03 
-8.568583e-03 2.628980e-03 5.145724e-03 
-8.126712e-03 7.056244e-03 -7.601738e-05 
2.701234e-03 8.951002e-03 -1.403134e-02 
5.313358e-04 8.912578e-03 -1.184936e-02 
3.238903e-03 -5.425111e-03 3.903993e-03 
3.759067e-03 2.826732e-04 -4.021996e-03 
-4.752844e-03 -5.677090e-03 1.255601e-02 
-1.268789e-03 2.302397e-03 -2.285368e-03 
6.032117e-03 2.822289e-03 -9.534769e-03 
-5.237533e-04 1.114143e-03 -9.265621e-04 
3.955038e-03 -3.739294e-03 9.564874e-04 
1.100948e-02 -7.799797e-03 -1.375010e-03 
2.339342e-03 -4.539710e-03 3.624539e-03 
-1.090017e-02 4.673977e-03 4.886769e-03 
1.885244e-04 4.934273e-03 -6.553524e-03 
1.116871e-03 7.338650e-03 -1.083925e-02 
1.091292e-02 -1.274298e-02 5.460468e-03 
-5.086555e-03 -2.563536e-03 8.140242e-03 
-1.535386e-02 1.850707e-03 1.286145e-02 
-2.444088e-03 6.775707e-03 -6.131716e-03 
2.015314e-03 9.515138e-04 -2.952750e-03 
9.861201e-03 -6.367880e-03 -1.770509e-03 
4.231350e-03 -7.678766e-03 5.740450e-03 
6.630807e-03 -6.275967e-03 9.175001e-04 
8.960459e-03 -2.711925e-03 -5.608024e-03 
-6.338249e-03 7.458926e-03 -3.298547e-03 
-8.826088e-03 1.151746e-02 -6.186223e-03 
-4.132573e-03 4.608194e-03 -2.099996e-03 
-2.128267e-03 7.206582e-03 -8.062603e-03 
-1.488112e-02 1.299788e-02 -1.963366e-03 
8.311762e-03 -1.867242e-02 1.522357e-02 
-1.616276e-02 2.209178e-03 1.318047e-02 
-5.325119e-03 4.413924e-03 -4.578386e-04 
-5.917598e-03 -1.610500e-03 7.934449e-03 
9.965189e-03 -5.322840e-03 -3.448553e-03 
-2.577581e-03 -1.875048e-03 5.589636e-03 
7.228773e-03 -6.199351e-03 1.050977e-03 
-4.540039e-03 2.502231e-03 1.596027e-03 
-6.935107e-03 6.960839e-03 -2.058919e-03 
1.105115e-02 -1.384881e-03 -9.305175e-03 
2.539593e-03 6.711301e-03 -1.128154e-02 
-7.089160e-04 1.277029e-02 -1.607036e-02 
1.819845e-03 -7.152615e-03 7.233709e-03 
-1.586375e-02 1.378563e-02 -1.952091e-03 
9.074133e-04 3.842907e-03 -5.929670e-03 
6.372286e-03 2.442325e-03 -9.579574e-03 
1.538199e-03 -2.110163e-04 -1.129141e-03 
3.780781e-04 1.191134e-03 -1.707009e-03 
-1.028138e-03 6.002195e-03 -6.618040e-03 
-6.702601e-03 3.783715e-03 1.395201e-03 
-2.193086e-04 -3.569766e-03 4.461708e-03 
6.006239e-03 -5.896484e-06 -6.045563e-03 
-3.032588e-03 -1.147092e-03 4.456483e-03 
-9.624872e-03 -9.637277e-03 2.210818e-02 
3.919558e-03 -1.292721e-02 1.248934e-02 
-3.696937e-03 1.562817e-03 1.562598e-03 
-4.479007e-03 -1.658194e-03 6.685089e-03 
-2.299395e-03 1.300421e-03 7.352323e-04 
-9.937702e-03 1.237435e-02 -6.020696e-03 
3.828416e-03 -2.578036e-03 -4.281017e-04 
6.629722e-04 5.385825e-03 -8.746837e-03 
-3.921411e-03 -7.715091e-03 1.404729e-02 
-3.784869e-04 -2.300424e-03 2.889542e-03 
2.543725e-03 -2.011293e-03 3.756669e-05 
3.096677e-06 7.191063e-03 -8.968246e-03 
-9.739983e-03 1.329979e-02 -7.601976e-03 
-1.313467e-02 2.672030e-03 9.660982e-03 
-1.998019e-03 5.672871e-03 -5.022833e-03 
2.677518e-03 -5.124175e-03 3.747220e-03 
1.434039e-02 -3.877394e-03 -9.180796e-03 
4.983745e-03 -7.042005e-03 3.779338e-03 
7.331700e-03 -1.971646e-03 -4.553642e-03 
-2.517427e-03 2.256764e-03 -7.507218e-04 
5.532028e-04 5.761330e-03 -8.204552e-03 
-4.046084e-03 5.595949e-03 -2.951261e-03 
-4.875545e-03 5.030735e-03 -2.039879e-03 
-4.067891e-03 8.736314e-03 -6.467817e-03 
5.778874e-03 -1.382426e-02 1.176518e-02 
1.155286e-02 1.885008e-03 -1.410923e-02 
7.788157e-03 -1.016639e-02 5.312003e-03 
6.175703e-03 7.028830e-03 -1.558584e-02 
2.966638e-03 -5.125076e-03 3.487522e-03 
-4.901995e-04 -6.927963e-03 8.445108e-03 
-2.499785e-03 1.517401e-03 1.071910e-03 
-2.598983e-03 6.387614e-03 -5.870603e-03 
-3.734488e-03 3.415012e-03 -4.124367e-04 
-1.348982e-02 4.487698e-03 7.307324e-03 
-2.786925e-03 -6.488095e-03 1.069650e-02 
4.019413e-03 3.729247e-03 -9.052190e-03 
3.747725e-03 -5.679589e-03 2.513214e-03 
-1.375536e-02 9.297061e-04 1.244861e-02 
-4.858814e-03 3.889881e-03 -3.289310e-04 
4.874600e-03 -2.356628e-03 -1.885066e-03 
-4.791404e-03 -2.963894e-04 5.340795e-03 
6.558681e-03 1.592809e-02 -2.735540e-02 
-4.116622e-03 -2.451384e-05 4.106991e-03 
-5.065933e-04 1.353624e-03 -1.246216e-03 
8.363826e-04 6.828009e-03 -9.576762e-03 
1.180787e-03 9.914332e-04 -2.492107e-03 
-2.586031e-03 -1.464863e-03 4.505794e-03 
7.168363e-03 -4.573584e-03 -1.382928e-03 
4.889137e-03 -6.018530e-03 2.014756e-03 
9.460121e-03 -6.125361e-03 -1.861927e-03 
-6.270276e-03 -6.382770e-04 7.066148e-03 
-1.118735e-02 7.146518e-03 1.325201e-03 
-5.908185e-03 1.267273e-02 -1.006795e-02 
4.032540e-03 4.921691e-04 -4.085768e-03 
-6.245340e-03 5.954200e-03 -1.587453e-03 
-3.739448e-03 -5.734856e-03 1.106809e-02 
-2.220479e-03 2.323075e-03 -1.790783e-03 
7.748392e-04 -5.393829e-03 6.277010e-03 
-2.775444e-03 9.874663e-03 -1.042234e-02 
-4.780755e-04 3.921345e-04 -8.011667e-05 
-8.630436e-03 1.109255e-02 -5.460687e-03 
2.612335e-03 1.162327e-03 -4.333118e-03 
-2.109754e-03 7.816020e-03 -8.092939e-03 
1.016719e-02 -2.332187e-03 -7.305412e-03 
-9.603182e-04 -4.934527e-04 1.104534e-03 
-1.132063e-02 1.035204e-02 -2.010349e-03 
5.740684e-03 -1.522901e-02 1.393911e-02 
1.237597e-02 -1.022438e-02 3.016701e-03 
1.307752e-04 9.161090e-03 -1.224376e-02 
5.665720e-04 5.755035e-03 -8.267971e-03 
6.536512e-03 -3.174789e-03 -2.593454e-03 
-1.066010e-02 6.864451e-03 2.104712e-03 
9.262862e-04 -3.080298e-03 3.071379e-03 
-1.008237e-03 4.638210e-03 -4.772985e-03 
-4.813279e-03 7.853459e-03 -5.409882e-03 
8.191580e-03 -8.420456e-03 1.724846e-03 
6.464843e-03 -4.445580e-03 -1.078494e-03 
-1.034695e-02 -6.073655e-04 1.095532e-02 
9.915643e-03 2.181825e-03 -1.215785e-02 
-1.219188e-02 -2.679049e-03 1.525653e-02 
1.557201e-02 -1.019165e-02 -2.295255e-03 
-9.122767e-03 1.143949e-02 -6.376023e-03 
1.716636e-04 -3.230039e-03 3.974226e-03 
2.020582e-03 -6.947865e-03 7.055004e-03 
2.197449e-03 -1.285419e-03 -1.155080e-03 
1.180388e-03 5.992539e-03 -8.995830e-03 
-1.057275e-02 7.929172e-03 -1.510276e-03 
-4.097464e-03 1.758036e-02 -1.886447e-02 
-2.893582e-03 -7.866692e-03 1.250456e-02 
5.304518e-03 -1.493646e-02 1.359276e-02 
3.970252e-03 -4.639653e-03 1.808991e-03 
2.146739e-03 -3.094384e-04 -1.818992e-03 
-5.708930e-03 1.646210e-02 -1.583437e-02 
5.303919e-04 3.906166e-03 -5.567013e-03 
1.015646e-02 1.297828e-04 -1.024146e-02 
2.514352e-03 -1.887140e-02 2.144854e-02 
4.112393e-03 -4.368942e-03 1.559747e-03 
6.489136e-04 5.547383e-03 -8.017068e-03 
-7.748521e-03 2.190336e-03 4.786876e-03 
4.490037e-03 -4.352466e-03 7.934441e-04 
7.515163e-03 -6.079852e-03 2.018234e-06 
-6.826950e-03 4.348713e-03 7.151997e-04 
3.870099e-03 -2.600769e-03 -3.197764e-04 
1.734220e-03 4.661030e-03 -8.621410e-03 
2.117633e-03 8.292682e-03 -1.218109e-02 
-3.788438e-03 -1.066535e-03 5.120089e-03 
-2.401968e-03 9.625962e-03 -9.995973e-03 
6.186211e-03 -5.346031e-03 5.000223e-04 
-2.122614e-03 -3.609942e-03 6.243929e-03 
1.571351e-03 -1.303744e-03 1.055160e-04 
-1.209999e-02 4.401553e-03 6.126773e-03 
-8.378802e-03 3.893725e-03 3.717608e-03 
-2.954914e-03 5.554451e-03 -4.110513e-03 
3.489475e-03 -6.791123e-03 4.765245e-03 
9.413795e-03 2.644956e-03 -1.311631e-02 
5.395969e-03 -1.008104e-02 7.169768e-03 
2.971706e-03 8.030506e-04 -3.675149e-03 
1.036274e-02 -8.896173e-03 1.102870e-03 
-3.977214e-03 -9.066753e-04 5.368161e-03 
5.622831e-03 -8.709610e-05 -5.213151e-03 
1.005985e-03 -1.525062e-04 -6.674642e-04 
3.141494e-03 -3.297960e-03 1.201518e-03 
-5.661527e-03 6.758520e-03 -2.411628e-03 
-4.036219e-04 5.304090e-03 -6.487412e-03 
-9.291496e-05 -2.317206e-03 2.829958e-03 
-4.675486e-03 7.844258e-03 -5.252558e-03 
2.541849e-03 3.881134e-03 -7.759529e-03 
-9.285498e-03 1.285072e-02 -6.893472e-03 
-8.516294e-03 -1.428164e-02 2.647336e-02 
-2.838357e-03 8.574831e-03 -8.402982e-03 
3.430776e-03 8.003440e-03 -1.349604e-02 
-2.318781e-03 3.607425e-03 -2.487888e-03 
-1.609105e-03 8.013828e-03 -9.899298e-03 
-7.722102e-04 -1.130804e-02 1.461727e-02 
2.278628e-03 -4.888083e-04 -1.689796e-03 
-7.324759e-03 -2.477430e-03 1.046496e-02 
-9.657699e-03 1.666869e-02 -1.154185e-02 
5.036919e-03 -1.106950e-03 -3.767274e-03 
6.441753e-03 3.009563e-03 -1.033219e-02 
-6.131170e-03 8.501754e-03 -4.982045e-03 
-5.369270e-03 1.376003e-02 -1.224421e-02 
3.370586e-03 -2.587165e-03 -3.464757e-04 
4.259073e-03 -2.564625e-03 -1.127573e-03 
5.809966e-03 -4.088205e-03 -6.774372e-04 
4.841753e-03 6.797450e-03 -1.337487e-02 
-1.077818e-03 -5.340243e-03 8.148739e-03 
6.938475e-03 -8.263211e-03 3.182756e-03 
4.988339e-03 -8.132415e-03 5.296468e-03 
4.055438e-03 -1.351003e-03 -2.572455e-03 
6.413542e-03 1.758853e-03 -8.644247e-03 
1.618567e-04 -2.728810e-03 3.966768e-03 
-6.628504e-03 4.664926e-03 5.956452e-04 
1.530444e-03 -1.781018e-03 8.227977e-04 
-1.125446e-02 2.873711e-03 7.477211e-03 
1.301267e-03 3.695932e-03 -6.553884e-03 
-8.712647e-03 1.179926e-02 -6.319220e-03 
-1.030149e-02 6.593871e-03 1.544425e-03 
-5.300350e-03 8.190349e-03 -6.059468e-03 
-6.696228e-03 -3.716465e-03 1.127552e-02 
-1.261180e-02 1.398187e-02 -5.707553e-03 
-2.555574e-03 1.049736e-02 -1.030883e-02 
-1.513539e-04 -5.005706e-03 6.075438e-03 
6.383467e-03 -1.672108e-02 1.559575e-02 
8.612695e-03 -6.715790e-03 -1.127015e-04 
-2.064602e-03 9.977864e-04 4.971386e-04 
2.972268e-03 -2.148040e-03 -1.470924e-04 
5.989485e-03 -6.395134e-03 1.791683e-03 
1.074128e-03 1.957979e-03 -4.653101e-03 
8.513965e-03 -4.768578e-03 -2.547791e-03 
3.537971e-03 -3.494978e-04 -2.877635e-03 
-1.035520e-02 1.793916e-02 -1.253758e-02 
-7.019150e-03 8.497371e-03 -4.225109e-03 
-3.454285e-03 2.946919e-03 -6.779992e-06 
3.234416e-03 -3.897809e-03 1.147619e-03 
-1.691892e-04 -5.487044e-04 -6.647034e-04 
-1.227078e-02 7.180972e-03 2.901350e-03 
1.742642e-04 -4.453249e-03 5.877847e-03 
8.537341e-03 -2.569051e-03 -5.120829e-03 
4.029064e-03 -6.466369e-04 -3.264007e-03 
8.970920e-03 -4.945593e-03 -2.374499e-03 
-4.034104e-03 3.087650e-03 -2.286659e-04 
-2.391085e-03 4.919354e-03 -3.126819e-03 
-1.040353e-02 1.341679e-02 -7.148451e-03 
-2.846861e-03 2.686188e-03 -6.846954e-04 
-9.528786e-03 -4.929672e-03 1.563780e-02 
-5.348057e-03 4.213818e-03 -4.526803e-04 
-8.158855e-03 5.248203e-03 8.266842e-04 
6.348253e-03 -4.065347e-03 -1.181782e-03 
9.057054e-03 6.318486e-04 -1.008136e-02 
-7.792525e-03 9.728139e-03 -4.806836e-03 
-1.137152e-02 5.500513e-03 4.253801e-03 
-2.374617e-03 3.867742e-03 -2.973817e-03 
1.371051e-02 -3.960012e-03 -8.331142e-03 
3.073560e-03 -2.840065e-03 3.199195e-04 
8.356993e-04 -3.420489e-03 2.984629e-03 
-5.784925e-03 5.375720e-03 -1.434786e-03 
1.998576e-03 3.332118e-03 -6.614455e-03 
8.647870e-03 -6.239084e-03 -1.108898e-03 
-1.418374e-04 8.895687e-03 -1.112618e-02 
-5.003743e-04 1.891946e-03 -1.674278e-03 
2.529168e-03 -2.020075e-04 -2.123195e-03 
3.712699e-03 -3.752048e-03 1.107186e-03 
-2.122091e-03 -1.457134e-03 3.746365e-03 
-1.895810e-03 7.522842e-03 -8.108938e-03 
-3.881924e-03 -7.471196e-03 1.302690e-02 
1.014318e-03 7.499077e-03 -1.056889e-02 
-2.504897e-03 5.357224e-03 -5.410127e-03 
-6.833192e-03 1.681002e-02 -1.445230e-02 
-5.005541e-03 7.928335e-03 -5.192753e-03 
1.253710e-02 -1.713022e-02 9.421074e-03 
1.906958e-02 -6.200066e-03 -1.096591e-02 
5.811171e-03 -6.293320e-03 2.040838e-03 
2.649373e-03 5.249111e-03 -9.407343e-03 
1.695936e-03 4.652301e-04 -2.223341e-03 
9.908351e-03 -2.151527e-02 1.823481e-02 
-1.612670e-02 2.631677e-03 1.282031e-02 
-1.168326e-02 4.687055e-03 5.220861e-03 
-7.045835e-04 -1.061406e-03 1.686014e-03 
-4.035407e-03 4.505397e-03 -2.217981e-03 
-3.057547e-03 6.927327e-03 -6.084930e-03 
9.433688e-03 -1.215400e-02 5.889851e-03 
-1.817562e-03 -2.957678e-03 4.753838e-03 
1.189677e-02 -6.113399e-03 -3.967063e-03 
1.537346e-02 -1.669922e-02 5.925739e-03 
-5.770416e-03 -8.964166e-04 6.955379e-03 
5.483242e-04 -1.949880e-03 1.773168e-03 
7.733848e-03 -5.331267e-03 -5.522727e-04 
2.850128e-03 6.385362e-03 -1.196985e-02 
3.543458e-03 -4.520844e-03 2.459787e-03 
4.615748e-04 2.719988e-03 -4.298817e-03 
2.146209e-03 -1.951827e-03 9.027843e-05 
1.805113e-03 -3.162261e-04 -1.222018e-03 
-3.591715e-03 -2.108871e-04 3.831715e-03 
-1.261974e-03 -2.598701e-05 1.808776e-03 
5.725773e-03 -3.524588e-03 -1.279547e-03 
-4.709646e-03 4.180663e-03 -7.755311e-04 
9.810081e-03 -5.525680e-04 -9.346412e-03 
4.188848e-03 -3.203533e-03 -1.094132e-03 
-4.156334e-03 3.605711e-03 -4.338437e-04 
-5.221592e-03 3.561024e-03 5.729372e-04 
-4.710469e-03 9.827157e-03 -7.704626e-03 
-2.785080e-03 1.239253e-02 -1.253908e-02 
5.253393e-03 -3.681514e-03 2.560528e-04 
-1.471590e-03 8.608027e-03 -9.657925e-03 
-2.861822e-03 -6.786710e-03 1.118453e-02 
-8.396681e-03 5.660997e-03 4.269368e-04 
-5.465541e-03 -3.389748e-04 5.852105e-03 
-6.837413e-03 9.818520e-03 -5.373207e-03 
-8.543828e-02 -1.255146e-01 -1.753528e-01 
